{
  "merges": [
    [
      "e",
      "</w>"
    ],
    [
      "t",
      "h"
    ],
    [
      "s",
      "</w>"
    ],
    [
      "n",
      "</w>"
    ],
    [
      "e",
      "r"
    ],
    [
      "t",
      "i"
    ],
    [
      "t",
      "</w>"
    ],
    [
      ",",
      "</w>"
    ],
    [
      "th",
      "e</w>"
    ],
    [
      "i",
      "n"
    ],
    [
      "o",
      "r"
    ],
    [
      "d",
      "</w>"
    ],
    [
      "a",
      "l"
    ],
    [
      "f",
      "</w>"
    ],
    [
      ".",
      "</w>"
    ],
    [
      "a",
      "n"
    ],
    [
      "o",
      "n"
    ],
    [
      "y",
      "</w>"
    ],
    [
      "e",
      "n"
    ],
    [
      "o",
      "f</w>"
    ],
    [
      "a",
      "r"
    ],
    [
      "i",
      "s</w>"
    ],
    [
      "r",
      "e"
    ],
    [
      "a",
      "</w>"
    ],
    [
      "o",
      "n</w>"
    ],
    [
      "o",
      "</w>"
    ],
    [
      "r",
      "o"
    ],
    [
      "e",
      "d</w>"
    ],
    [
      "e",
      "m"
    ],
    [
      "e",
      "s</w>"
    ],
    [
      "a",
      "ti"
    ],
    [
      "an",
      "d</w>"
    ],
    [
      "i",
      "c"
    ],
    [
      "al",
      "</w>"
    ],
    [
      "er",
      "</w>"
    ],
    [
      "s",
      "t"
    ],
    [
      "i",
      "t"
    ],
    [
      "g",
      "</w>"
    ],
    [
      "i",
      "n</w>"
    ],
    [
      "or",
      "</w>"
    ],
    [
      "a",
      "t"
    ],
    [
      "o",
      "m"
    ],
    [
      "a",
      "t</w>"
    ],
    [
      "th",
      "e"
    ],
    [
      "s",
      "i"
    ],
    [
      "t",
      "o</w>"
    ],
    [
      "u",
      "n"
    ],
    [
      "T",
      "h"
    ],
    [
      "a",
      "n</w>"
    ],
    [
      "o",
      "l"
    ],
    [
      "c",
      "on"
    ],
    [
      "p",
      "ro"
    ],
    [
      "e",
      "l"
    ],
    [
      "a",
      "c"
    ],
    [
      "s",
      "u"
    ],
    [
      "q",
      "u"
    ],
    [
      "e",
      "c"
    ],
    [
      "th",
      "at</w>"
    ],
    [
      "d",
      "i"
    ],
    [
      "in",
      "g</w>"
    ],
    [
      "e",
      "s"
    ],
    [
      "p",
      "l"
    ],
    [
      "s",
      "e"
    ],
    [
      "h",
      "</w>"
    ],
    [
      "a",
      "s</w>"
    ],
    [
      "e",
      "x"
    ],
    [
      "the",
      "or"
    ],
    [
      "u",
      "l"
    ],
    [
      "a",
      "s"
    ],
    [
      "r",
      "i"
    ],
    [
      "a",
      "b"
    ],
    [
      "m",
      "</w>"
    ],
    [
      "f",
      "or</w>"
    ],
    [
      "ti",
      "on</w>"
    ],
    [
      "w",
      "h"
    ],
    [
      "al",
      "l"
    ],
    [
      "o",
      "w"
    ],
    [
      "a",
      "m"
    ],
    [
      "u",
      "r"
    ],
    [
      "v",
      "e</w>"
    ],
    [
      "th",
      "</w>"
    ],
    [
      "e",
      "t"
    ],
    [
      "i",
      "l"
    ],
    [
      "e",
      "n</w>"
    ],
    [
      "b",
      "e</w>"
    ],
    [
      "theor",
      "em"
    ],
    [
      "Th",
      "e</w>"
    ],
    [
      "v",
      "er"
    ],
    [
      "en",
      "t"
    ],
    [
      "ti",
      "on"
    ],
    [
      "p",
      "o"
    ],
    [
      "b",
      "y</w>"
    ],
    [
      ":",
      "</w>"
    ],
    [
      ")",
      "</w>"
    ],
    [
      "u",
      "s"
    ],
    [
      "i",
      "s"
    ],
    [
      "d",
      "e"
    ],
    [
      "in",
      "t"
    ],
    [
      "f",
      "or"
    ],
    [
      "en",
      "c"
    ],
    [
      "ati",
      "on</w>"
    ],
    [
      "w",
      "i"
    ],
    [
      "u",
      "m"
    ],
    [
      "ar",
      "e</w>"
    ],
    [
      "m",
      "a"
    ],
    [
      "e",
      "qu"
    ],
    [
      "en",
      "t</w>"
    ],
    [
      "'",
      "s</w>"
    ],
    [
      "it",
      "y</w>"
    ],
    [
      "un",
      "c"
    ],
    [
      "s",
      "p"
    ],
    [
      "f",
      "in"
    ],
    [
      "c",
      "h"
    ],
    [
      "s",
      ",</w>"
    ],
    [
      "c",
      "om"
    ],
    [
      "l",
      "e</w>"
    ],
    [
      "er",
      "e</w>"
    ],
    [
      "ati",
      "on"
    ],
    [
      "1",
      "9"
    ],
    [
      "wi",
      "th</w>"
    ],
    [
      "theorem",
      "</w>"
    ],
    [
      "i",
      "m"
    ],
    [
      "f",
      "unc"
    ],
    [
      "i",
      "r"
    ],
    [
      "ti",
      "c"
    ],
    [
      "=",
      "</w>"
    ],
    [
      "u",
      "c"
    ],
    [
      "o",
      "u"
    ],
    [
      "i",
      "v"
    ],
    [
      "l",
      "y</w>"
    ],
    [
      "a",
      "p"
    ],
    [
      "n",
      "o"
    ],
    [
      "l",
      "e"
    ],
    [
      "i",
      "t</w>"
    ],
    [
      "ec",
      "t"
    ],
    [
      "s",
      ".</w>"
    ],
    [
      "m",
      "e"
    ],
    [
      "o",
      "p"
    ],
    [
      "e",
      "g"
    ],
    [
      "ti",
      "n"
    ],
    [
      "um",
      "b"
    ],
    [
      "ic",
      "</w>"
    ],
    [
      "c",
      "an</w>"
    ],
    [
      "n",
      "umb"
    ],
    [
      "m",
      "o"
    ],
    [
      "e",
      ",</w>"
    ],
    [
      "f",
      "f"
    ],
    [
      "y",
      ",</w>"
    ],
    [
      "c",
      "o"
    ],
    [
      "e",
      "d"
    ],
    [
      ")",
      ".</w>"
    ],
    [
      "ar",
      "i"
    ],
    [
      "p",
      "ar"
    ],
    [
      "for",
      "m"
    ],
    [
      "s",
      "e</w>"
    ],
    [
      "a",
      "d"
    ],
    [
      "s",
      "o</w>"
    ],
    [
      "p",
      "re"
    ],
    [
      "ic",
      "h</w>"
    ],
    [
      "i",
      "g"
    ],
    [
      "I",
      "n</w>"
    ],
    [
      "enc",
      "e</w>"
    ],
    [
      "o",
      "g"
    ],
    [
      "i",
      "d"
    ],
    [
      "t",
      "r"
    ],
    [
      "i",
      "f</w>"
    ],
    [
      "0",
      "0"
    ],
    [
      "th",
      "is</w>"
    ],
    [
      "st",
      "r"
    ],
    [
      "no",
      "t</w>"
    ],
    [
      "t",
      "er"
    ],
    [
      "ati",
      "c"
    ],
    [
      "all",
      "</w>"
    ],
    [
      "wh",
      "ich</w>"
    ],
    [
      "th",
      "em"
    ],
    [
      "en",
      "ti"
    ],
    [
      "c",
      "l"
    ],
    [
      "f",
      "i"
    ],
    [
      "en",
      "er"
    ],
    [
      "u",
      "p"
    ],
    [
      "an",
      "g"
    ],
    [
      "ar",
      "</w>"
    ],
    [
      ")",
      ",</w>"
    ],
    [
      "th",
      "er</w>"
    ],
    [
      "tion",
      "s</w>"
    ],
    [
      "h",
      "a"
    ],
    [
      "equ",
      "al"
    ],
    [
      "o",
      "t"
    ],
    [
      "d",
      "uc"
    ],
    [
      "a",
      "g"
    ],
    [
      "b",
      "o"
    ],
    [
      "f",
      "ol"
    ],
    [
      "=",
      "=</w>"
    ],
    [
      "the",
      "n</w>"
    ],
    [
      "p",
      "er"
    ],
    [
      "t",
      "a"
    ],
    [
      "g",
      "e"
    ],
    [
      "an",
      "y</w>"
    ],
    [
      "b",
      "u"
    ],
    [
      "or",
      "d"
    ],
    [
      "s",
      "h"
    ],
    [
      "them",
      "atic"
    ],
    [
      "k",
      "</w>"
    ],
    [
      "in",
      "g"
    ],
    [
      "fin",
      "it"
    ],
    [
      "t",
      "s</w>"
    ],
    [
      "ro",
      "m</w>"
    ],
    [
      "int",
      "eg"
    ],
    [
      "e",
      ".</w>"
    ],
    [
      "g",
      "ener"
    ],
    [
      "c",
      "h</w>"
    ],
    [
      "un",
      "d"
    ],
    [
      "v",
      "al"
    ],
    [
      "on",
      "e</w>"
    ],
    [
      "se",
      "t</w>"
    ],
    [
      "func",
      "tion</w>"
    ],
    [
      "l",
      "ow"
    ],
    [
      "v",
      "ari"
    ],
    [
      "st",
      "at"
    ],
    [
      "f",
      "rom</w>"
    ],
    [
      "1",
      "0"
    ],
    [
      "an",
      "d"
    ],
    [
      "ab",
      "le</w>"
    ],
    [
      "l",
      "</w>"
    ],
    [
      "s",
      "t</w>"
    ],
    [
      "pro",
      "v"
    ],
    [
      "in",
      "c"
    ],
    [
      "t",
      "w"
    ],
    [
      "en",
      "d"
    ],
    [
      "l",
      "i"
    ],
    [
      ";",
      "</w>"
    ],
    [
      "(",
      "19"
    ],
    [
      "l",
      "em"
    ],
    [
      "i",
      "z"
    ],
    [
      "w",
      "e</w>"
    ],
    [
      "al",
      "so</w>"
    ],
    [
      "sp",
      "ac"
    ],
    [
      "A",
      "</w>"
    ],
    [
      "o",
      "v"
    ],
    [
      "u",
      "t"
    ],
    [
      "pro",
      "b"
    ],
    [
      "in",
      "equal"
    ],
    [
      "er",
      "s</w>"
    ],
    [
      "r",
      "a"
    ],
    [
      "h",
      "as</w>"
    ],
    [
      "su",
      "ch</w>"
    ],
    [
      "M",
      "a"
    ],
    [
      "numb",
      "er</w>"
    ],
    [
      "all",
      "y</w>"
    ],
    [
      "wh",
      "ere</w>"
    ],
    [
      "o",
      "b"
    ],
    [
      "=",
      "==</w>"
    ],
    [
      "val",
      "u"
    ],
    [
      "E",
      "N"
    ],
    [
      "ation",
      "s</w>"
    ],
    [
      "l",
      "in"
    ],
    [
      "e",
      "v"
    ],
    [
      "si",
      "on</w>"
    ],
    [
      "su",
      "b"
    ],
    [
      "Th",
      "is</w>"
    ],
    [
      "1",
      "</w>"
    ],
    [
      "o",
      "c"
    ],
    [
      "pre",
      "s"
    ],
    [
      "di",
      "ff"
    ],
    [
      "et",
      "r"
    ],
    [
      "tw",
      "o</w>"
    ],
    [
      "si",
      "d"
    ],
    [
      "s",
      "y"
    ],
    [
      "th",
      "ere</w>"
    ],
    [
      "e",
      "t</w>"
    ],
    [
      "tin",
      "g</w>"
    ],
    [
      "g",
      "ro"
    ],
    [
      "w",
      "as</w>"
    ],
    [
      "am",
      "pl"
    ],
    [
      "y",
      ".</w>"
    ],
    [
      "ac",
      "h</w>"
    ],
    [
      "e",
      "ver"
    ],
    [
      "d",
      "o"
    ],
    [
      "si",
      "on"
    ],
    [
      "j",
      "ect"
    ],
    [
      "fol",
      "low"
    ],
    [
      "g",
      "iv"
    ],
    [
      "de",
      "fin"
    ],
    [
      "com",
      "p"
    ],
    [
      "ha",
      "ve</w>"
    ],
    [
      "tic",
      "</w>"
    ],
    [
      "o",
      "d"
    ],
    [
      "ar",
      "y</w>"
    ],
    [
      "it",
      "s</w>"
    ],
    [
      "x",
      "</w>"
    ],
    [
      "n",
      "on"
    ],
    [
      "ti",
      "ve</w>"
    ],
    [
      "ab",
      "il"
    ],
    [
      "at",
      "e</w>"
    ],
    [
      "at",
      "ed</w>"
    ],
    [
      "ur",
      "e</w>"
    ],
    [
      "pro",
      "of</w>"
    ],
    [
      "a",
      "y"
    ],
    [
      "po",
      "si"
    ],
    [
      "es",
      ",</w>"
    ],
    [
      "gro",
      "up"
    ],
    [
      "es",
      ".</w>"
    ],
    [
      "ent",
      "s</w>"
    ],
    [
      "i",
      "st"
    ],
    [
      "i",
      "</w>"
    ],
    [
      "int",
      "er"
    ],
    [
      "ti",
      "m"
    ],
    [
      "re",
      "c"
    ],
    [
      "finit",
      "e</w>"
    ],
    [
      "as",
      "e</w>"
    ],
    [
      "com",
      "pl"
    ],
    [
      "p",
      "h"
    ],
    [
      "diff",
      "er"
    ],
    [
      "su",
      "l"
    ],
    [
      "N",
      "</w>"
    ],
    [
      "re",
      "sul"
    ],
    [
      "v",
      "i"
    ],
    [
      "se",
      "qu"
    ],
    [
      "el",
      "y</w>"
    ],
    [
      "on",
      "ly</w>"
    ],
    [
      "si",
      "m"
    ],
    [
      "2",
      "</w>"
    ],
    [
      "su",
      "r"
    ],
    [
      "con",
      "ject"
    ],
    [
      "f",
      "ac"
    ],
    [
      "f",
      "er"
    ],
    [
      "p",
      "</w>"
    ],
    [
      "re",
      "l"
    ],
    [
      "w",
      "e"
    ],
    [
      "enc",
      "es</w>"
    ],
    [
      "an",
      "t</w>"
    ],
    [
      "s",
      "ol"
    ],
    [
      "ic",
      "al</w>"
    ],
    [
      "t",
      "ri"
    ],
    [
      "F",
      "or</w>"
    ],
    [
      "su",
      "m"
    ],
    [
      "for",
      "m</w>"
    ],
    [
      "inequal",
      "ity</w>"
    ],
    [
      "mo",
      "d"
    ],
    [
      "es",
      "s</w>"
    ],
    [
      "s",
      "om"
    ],
    [
      "form",
      "ul"
    ],
    [
      "f",
      "ir"
    ],
    [
      "(",
      "2"
    ],
    [
      "m",
      "en"
    ],
    [
      "em",
      "ent</w>"
    ],
    [
      "D",
      "</w>"
    ],
    [
      "ex",
      "</w>"
    ],
    [
      "m",
      "an"
    ],
    [
      "u",
      "s</w>"
    ],
    [
      "am",
      "e</w>"
    ],
    [
      "i",
      "es</w>"
    ],
    [
      "ou",
      "s</w>"
    ],
    [
      "an",
      "c"
    ],
    [
      "el",
      "</w>"
    ],
    [
      "di",
      "st"
    ],
    [
      "al",
      "iz"
    ],
    [
      "in",
      "t</w>"
    ],
    [
      "I",
      "f</w>"
    ],
    [
      "ig",
      "h"
    ],
    [
      "m",
      "in"
    ],
    [
      "e",
      "ach</w>"
    ],
    [
      "po",
      "s"
    ],
    [
      "pl",
      "ic"
    ],
    [
      "di",
      "s"
    ],
    [
      "o",
      "ther</w>"
    ],
    [
      "T",
      "</w>"
    ],
    [
      "o",
      "f"
    ],
    [
      "w",
      "</w>"
    ],
    [
      "g",
      "e</w>"
    ],
    [
      "I",
      "S"
    ],
    [
      "abil",
      "ity</w>"
    ],
    [
      "i",
      "al</w>"
    ],
    [
      "p",
      "ol"
    ],
    [
      "R",
      "e"
    ],
    [
      "c",
      "ur"
    ],
    [
      "a",
      "us"
    ],
    [
      "ma",
      "thematic"
    ],
    [
      "1",
      ",</w>"
    ],
    [
      "an",
      "s"
    ],
    [
      "di",
      "men"
    ],
    [
      "ati",
      "ve</w>"
    ],
    [
      "sp",
      "ec"
    ],
    [
      "n",
      "ow"
    ],
    [
      "F",
      "</w>"
    ],
    [
      "or",
      "e</w>"
    ],
    [
      "L",
      "et</w>"
    ],
    [
      ".",
      "."
    ],
    [
      "b",
      "e"
    ],
    [
      "pro",
      "duc"
    ],
    [
      "I",
      "n"
    ],
    [
      "ge",
      "b"
    ],
    [
      "de",
      "p"
    ],
    [
      "n",
      "e"
    ],
    [
      "m",
      "at"
    ],
    [
      "me",
      "a"
    ],
    [
      "d",
      "s</w>"
    ],
    [
      "I",
      "t</w>"
    ],
    [
      "d",
      "en"
    ],
    [
      "u",
      "re"
    ],
    [
      "Ma",
      "thematic"
    ],
    [
      "ati",
      "s"
    ],
    [
      "integ",
      "r"
    ],
    [
      "d",
      "er"
    ],
    [
      "c",
      "ase</w>"
    ],
    [
      "t",
      "y</w>"
    ],
    [
      "g",
      "r"
    ],
    [
      "po",
      "int"
    ],
    [
      "sh",
      "ow"
    ],
    [
      "P",
      "ro"
    ],
    [
      "o",
      "s"
    ],
    [
      "re",
      "e</w>"
    ],
    [
      "tin",
      "u"
    ],
    [
      "Th",
      "e"
    ],
    [
      "ol",
      "og"
    ],
    [
      "giv",
      "en</w>"
    ],
    [
      "func",
      "tions</w>"
    ],
    [
      "S",
      "t"
    ],
    [
      "n",
      "i"
    ],
    [
      "fir",
      "st</w>"
    ],
    [
      "ex",
      "ampl"
    ],
    [
      "an",
      "t"
    ],
    [
      "t",
      "er</w>"
    ],
    [
      "ti",
      "es</w>"
    ],
    [
      "\"",
      "</w>"
    ],
    [
      "b",
      "le</w>"
    ],
    [
      "p",
      "r"
    ],
    [
      "fi",
      "el"
    ],
    [
      "un",
      "i"
    ],
    [
      "func",
      "tion"
    ],
    [
      "som",
      "e</w>"
    ],
    [
      "ex",
      "ist"
    ],
    [
      "spac",
      "e</w>"
    ],
    [
      "ever",
      "y</w>"
    ],
    [
      "con",
      "tinu"
    ],
    [
      "bu",
      "t</w>"
    ],
    [
      "non",
      "-"
    ],
    [
      "th",
      "an</w>"
    ],
    [
      "al",
      "geb"
    ],
    [
      "dep",
      "end"
    ],
    [
      "s",
      "er"
    ],
    [
      "u",
      "m</w>"
    ],
    [
      "u",
      "e</w>"
    ],
    [
      "o",
      "ur"
    ],
    [
      "ri",
      "bu"
    ],
    [
      "ou",
      "t</w>"
    ],
    [
      "O",
      "C"
    ],
    [
      "c",
      "or"
    ],
    [
      "om",
      "etr"
    ],
    [
      "st",
      "em"
    ],
    [
      "R",
      "</w>"
    ],
    [
      "id",
      "enti"
    ],
    [
      "pol",
      "y"
    ],
    [
      "ov",
      "er</w>"
    ],
    [
      "om",
      "</w>"
    ],
    [
      "p",
      "ri"
    ],
    [
      "prov",
      "ed</w>"
    ],
    [
      "v",
      "ect"
    ],
    [
      "2",
      "0"
    ],
    [
      "dist",
      "ribu"
    ],
    [
      "h",
      "ol"
    ],
    [
      "fer",
      "ences</w>"
    ],
    [
      "str",
      "uc"
    ],
    [
      "dimen",
      "sion"
    ],
    [
      "10",
      "."
    ],
    [
      "con",
      "di"
    ],
    [
      "po",
      "int</w>"
    ],
    [
      "ff",
      "ic"
    ],
    [
      "U",
      "M"
    ],
    [
      "ul",
      "ar</w>"
    ],
    [
      "u",
      "d"
    ],
    [
      "B",
      "N</w>"
    ],
    [
      "tr",
      "ans"
    ],
    [
      "IS",
      "BN</w>"
    ],
    [
      "ir",
      "</w>"
    ],
    [
      "O",
      "F</w>"
    ],
    [
      "EN",
      "T</w>"
    ],
    [
      "EN",
      "D</w>"
    ],
    [
      "D",
      "OC"
    ],
    [
      "DOC",
      "UM"
    ],
    [
      "DOCUM",
      "ENT</w>"
    ],
    [
      "m",
      "a</w>"
    ],
    [
      "ex",
      "t"
    ],
    [
      "z",
      "er"
    ],
    [
      "k",
      "now"
    ],
    [
      "us",
      "ed</w>"
    ],
    [
      "ex",
      "p"
    ],
    [
      "s",
      "ame</w>"
    ],
    [
      "9",
      "7"
    ],
    [
      "l",
      "es</w>"
    ],
    [
      "+",
      "</w>"
    ],
    [
      "sy",
      "stem"
    ],
    [
      "x",
      "im"
    ],
    [
      "t",
      "ed</w>"
    ],
    [
      "do",
      "i"
    ],
    [
      ":",
      "10."
    ],
    [
      "inc",
      "e</w>"
    ],
    [
      "doi",
      ":10."
    ],
    [
      "The",
      "or"
    ],
    [
      "der",
      "iv"
    ]
  ],
  "stoi": {
    "!": 0,
    "\"": 1,
    "\"</w>": 2,
    "#": 3,
    "$": 4,
    "%": 5,
    "&": 6,
    "'": 7,
    "'s</w>": 8,
    "(": 9,
    "(19": 10,
    "(2": 11,
    ")": 12,
    "),</w>": 13,
    ").</w>": 14,
    ")</w>": 15,
    "*": 16,
    "+": 17,
    "+</w>": 18,
    ",": 19,
    ",</w>": 20,
    "-": 21,
    ".": 22,
    "..": 23,
    ".</w>": 24,
    "/": 25,
    "0": 26,
    "00": 27,
    "1": 28,
    "1,</w>": 29,
    "10": 30,
    "10.": 31,
    "19": 32,
    "1</w>": 33,
    "2": 34,
    "20": 35,
    "2</w>": 36,
    "3": 37,
    "4": 38,
    "5": 39,
    "6": 40,
    "7": 41,
    "8": 42,
    "9": 43,
    "97": 44,
    ":": 45,
    ":10.": 46,
    ":</w>": 47,
    ";": 48,
    ";</w>": 49,
    "<": 50,
    "</w>": 51,
    "=": 52,
    "=</w>": 53,
    "==</w>": 54,
    "===</w>": 55,
    ">": 56,
    "?": 57,
    "A": 58,
    "A</w>": 59,
    "B": 60,
    "BN</w>": 61,
    "C": 62,
    "D": 63,
    "D</w>": 64,
    "DOCUMENT</w>": 65,
    "E": 66,
    "EN": 67,
    "END</w>": 68,
    "ENT</w>": 69,
    "F": 70,
    "F</w>": 71,
    "For</w>": 72,
    "G": 73,
    "H": 74,
    "I": 75,
    "IS": 76,
    "ISBN</w>": 77,
    "If</w>": 78,
    "In": 79,
    "In</w>": 80,
    "It</w>": 81,
    "J": 82,
    "K": 83,
    "L": 84,
    "Let</w>": 85,
    "M": 86,
    "Ma": 87,
    "Mathematic": 88,
    "N": 89,
    "N</w>": 90,
    "O": 91,
    "OC": 92,
    "OF</w>": 93,
    "P": 94,
    "Pro": 95,
    "Q": 96,
    "R": 97,
    "R</w>": 98,
    "Re": 99,
    "S": 100,
    "St": 101,
    "T": 102,
    "T</w>": 103,
    "Th": 104,
    "The": 105,
    "The</w>": 106,
    "Theor": 107,
    "This</w>": 108,
    "U": 109,
    "UM": 110,
    "V": 111,
    "W": 112,
    "X": 113,
    "Y": 114,
    "Z": 115,
    "[": 116,
    "\\": 117,
    "]": 118,
    "^": 119,
    "_": 120,
    "a": 121,
    "a</w>": 122,
    "ab": 123,
    "abil": 124,
    "ability</w>": 125,
    "able</w>": 126,
    "ac": 127,
    "ach</w>": 128,
    "ad": 129,
    "ag": 130,
    "al": 131,
    "al</w>": 132,
    "algeb": 133,
    "aliz": 134,
    "all": 135,
    "all</w>": 136,
    "ally</w>": 137,
    "also</w>": 138,
    "am": 139,
    "ame</w>": 140,
    "ampl": 141,
    "an": 142,
    "an</w>": 143,
    "anc": 144,
    "and": 145,
    "and</w>": 146,
    "ang": 147,
    "ans": 148,
    "ant": 149,
    "ant</w>": 150,
    "any</w>": 151,
    "ap": 152,
    "ar": 153,
    "ar</w>": 154,
    "are</w>": 155,
    "ari": 156,
    "ary</w>": 157,
    "as": 158,
    "as</w>": 159,
    "ase</w>": 160,
    "at": 161,
    "at</w>": 162,
    "ate</w>": 163,
    "ated</w>": 164,
    "ati": 165,
    "atic": 166,
    "ation": 167,
    "ation</w>": 168,
    "ations</w>": 169,
    "atis": 170,
    "ative</w>": 171,
    "aus": 172,
    "ay": 173,
    "b": 174,
    "be": 175,
    "be</w>": 176,
    "ble</w>": 177,
    "bo": 178,
    "bu": 179,
    "but</w>": 180,
    "by</w>": 181,
    "c": 182,
    "can</w>": 183,
    "case</w>": 184,
    "ch": 185,
    "ch</w>": 186,
    "cl": 187,
    "co": 188,
    "com": 189,
    "comp": 190,
    "compl": 191,
    "con": 192,
    "condi": 193,
    "conject": 194,
    "continu": 195,
    "cor": 196,
    "cur": 197,
    "d": 198,
    "d</w>": 199,
    "de": 200,
    "defin": 201,
    "den": 202,
    "dep": 203,
    "depend": 204,
    "der": 205,
    "deriv": 206,
    "di": 207,
    "diff": 208,
    "differ": 209,
    "dimen": 210,
    "dimension": 211,
    "dis": 212,
    "dist": 213,
    "distribu": 214,
    "do": 215,
    "doi": 216,
    "doi:10.": 217,
    "ds</w>": 218,
    "duc": 219,
    "e": 220,
    "e,</w>": 221,
    "e.</w>": 222,
    "e</w>": 223,
    "each</w>": 224,
    "ec": 225,
    "ect": 226,
    "ed": 227,
    "ed</w>": 228,
    "eg": 229,
    "el": 230,
    "el</w>": 231,
    "ely</w>": 232,
    "em": 233,
    "ement</w>": 234,
    "en": 235,
    "en</w>": 236,
    "enc": 237,
    "ence</w>": 238,
    "ences</w>": 239,
    "end": 240,
    "ener": 241,
    "ent": 242,
    "ent</w>": 243,
    "enti": 244,
    "ents</w>": 245,
    "equ": 246,
    "equal": 247,
    "er": 248,
    "er</w>": 249,
    "ere</w>": 250,
    "ers</w>": 251,
    "es": 252,
    "es,</w>": 253,
    "es.</w>": 254,
    "es</w>": 255,
    "ess</w>": 256,
    "et": 257,
    "et</w>": 258,
    "etr": 259,
    "ev": 260,
    "ever": 261,
    "every</w>": 262,
    "ex": 263,
    "ex</w>": 264,
    "exampl": 265,
    "exist": 266,
    "exp": 267,
    "ext": 268,
    "f": 269,
    "f</w>": 270,
    "fac": 271,
    "fer": 272,
    "ferences</w>": 273,
    "ff": 274,
    "ffic": 275,
    "fi": 276,
    "fiel": 277,
    "fin": 278,
    "finit": 279,
    "finite</w>": 280,
    "fir": 281,
    "first</w>": 282,
    "fol": 283,
    "follow": 284,
    "for": 285,
    "for</w>": 286,
    "form": 287,
    "form</w>": 288,
    "formul": 289,
    "from</w>": 290,
    "func": 291,
    "function": 292,
    "function</w>": 293,
    "functions</w>": 294,
    "g": 295,
    "g</w>": 296,
    "ge": 297,
    "ge</w>": 298,
    "geb": 299,
    "gener": 300,
    "giv": 301,
    "given</w>": 302,
    "gr": 303,
    "gro": 304,
    "group": 305,
    "h": 306,
    "h</w>": 307,
    "ha": 308,
    "has</w>": 309,
    "have</w>": 310,
    "hol": 311,
    "i": 312,
    "i</w>": 313,
    "ial</w>": 314,
    "ic": 315,
    "ic</w>": 316,
    "ical</w>": 317,
    "ich</w>": 318,
    "id": 319,
    "identi": 320,
    "ies</w>": 321,
    "if</w>": 322,
    "ig": 323,
    "igh": 324,
    "il": 325,
    "im": 326,
    "in": 327,
    "in</w>": 328,
    "inc": 329,
    "ince</w>": 330,
    "inequal": 331,
    "inequality</w>": 332,
    "ing": 333,
    "ing</w>": 334,
    "int": 335,
    "int</w>": 336,
    "integ": 337,
    "integr": 338,
    "inter": 339,
    "ir": 340,
    "ir</w>": 341,
    "is": 342,
    "is</w>": 343,
    "ist": 344,
    "it": 345,
    "it</w>": 346,
    "its</w>": 347,
    "ity</w>": 348,
    "iv": 349,
    "iz": 350,
    "j": 351,
    "ject": 352,
    "k": 353,
    "k</w>": 354,
    "know": 355,
    "l": 356,
    "l</w>": 357,
    "le": 358,
    "le</w>": 359,
    "lem": 360,
    "les</w>": 361,
    "li": 362,
    "lin": 363,
    "low": 364,
    "ly</w>": 365,
    "m": 366,
    "m</w>": 367,
    "ma": 368,
    "ma</w>": 369,
    "man": 370,
    "mat": 371,
    "mathematic": 372,
    "me": 373,
    "mea": 374,
    "men": 375,
    "min": 376,
    "mo": 377,
    "mod": 378,
    "n": 379,
    "n</w>": 380,
    "ne": 381,
    "ni": 382,
    "no": 383,
    "non": 384,
    "non-": 385,
    "not</w>": 386,
    "now": 387,
    "numb": 388,
    "number</w>": 389,
    "o": 390,
    "o</w>": 391,
    "ob": 392,
    "oc": 393,
    "od": 394,
    "of": 395,
    "of</w>": 396,
    "og": 397,
    "ol": 398,
    "olog": 399,
    "om": 400,
    "om</w>": 401,
    "ometr": 402,
    "on": 403,
    "on</w>": 404,
    "one</w>": 405,
    "only</w>": 406,
    "op": 407,
    "or": 408,
    "or</w>": 409,
    "ord": 410,
    "ore</w>": 411,
    "os": 412,
    "ot": 413,
    "other</w>": 414,
    "ou": 415,
    "our": 416,
    "ous</w>": 417,
    "out</w>": 418,
    "ov": 419,
    "over</w>": 420,
    "ow": 421,
    "p": 422,
    "p</w>": 423,
    "par": 424,
    "per": 425,
    "ph": 426,
    "pl": 427,
    "plic": 428,
    "po": 429,
    "point": 430,
    "point</w>": 431,
    "pol": 432,
    "poly": 433,
    "pos": 434,
    "posi": 435,
    "pr": 436,
    "pre": 437,
    "pres": 438,
    "pri": 439,
    "pro": 440,
    "prob": 441,
    "produc": 442,
    "proof</w>": 443,
    "prov": 444,
    "proved</w>": 445,
    "q": 446,
    "qu": 447,
    "r": 448,
    "ra": 449,
    "re": 450,
    "rec": 451,
    "ree</w>": 452,
    "rel": 453,
    "resul": 454,
    "ri": 455,
    "ribu": 456,
    "ro": 457,
    "rom</w>": 458,
    "s": 459,
    "s,</w>": 460,
    "s.</w>": 461,
    "s</w>": 462,
    "same</w>": 463,
    "se": 464,
    "se</w>": 465,
    "sequ": 466,
    "ser": 467,
    "set</w>": 468,
    "sh": 469,
    "show": 470,
    "si": 471,
    "sid": 472,
    "sim": 473,
    "sion": 474,
    "sion</w>": 475,
    "so</w>": 476,
    "sol": 477,
    "som": 478,
    "some</w>": 479,
    "sp": 480,
    "spac": 481,
    "space</w>": 482,
    "spec": 483,
    "st": 484,
    "st</w>": 485,
    "stat": 486,
    "stem": 487,
    "str": 488,
    "struc": 489,
    "su": 490,
    "sub": 491,
    "such</w>": 492,
    "sul": 493,
    "sum": 494,
    "sur": 495,
    "sy": 496,
    "system": 497,
    "t": 498,
    "t</w>": 499,
    "ta": 500,
    "ted</w>": 501,
    "ter": 502,
    "ter</w>": 503,
    "th": 504,
    "th</w>": 505,
    "than</w>": 506,
    "that</w>": 507,
    "the": 508,
    "the</w>": 509,
    "them": 510,
    "thematic": 511,
    "then</w>": 512,
    "theor": 513,
    "theorem": 514,
    "theorem</w>": 515,
    "ther</w>": 516,
    "there</w>": 517,
    "this</w>": 518,
    "ti": 519,
    "tic": 520,
    "tic</w>": 521,
    "ties</w>": 522,
    "tim": 523,
    "tin": 524,
    "ting</w>": 525,
    "tinu": 526,
    "tion": 527,
    "tion</w>": 528,
    "tions</w>": 529,
    "tive</w>": 530,
    "to</w>": 531,
    "tr": 532,
    "trans": 533,
    "tri": 534,
    "ts</w>": 535,
    "tw": 536,
    "two</w>": 537,
    "ty</w>": 538,
    "u": 539,
    "uc": 540,
    "ud": 541,
    "ue</w>": 542,
    "ul": 543,
    "ular</w>": 544,
    "um": 545,
    "um</w>": 546,
    "umb": 547,
    "un": 548,
    "unc": 549,
    "und": 550,
    "uni": 551,
    "up": 552,
    "ur": 553,
    "ure": 554,
    "ure</w>": 555,
    "us": 556,
    "us</w>": 557,
    "used</w>": 558,
    "ut": 559,
    "v": 560,
    "val": 561,
    "valu": 562,
    "vari": 563,
    "ve</w>": 564,
    "vect": 565,
    "ver": 566,
    "vi": 567,
    "w": 568,
    "w</w>": 569,
    "was</w>": 570,
    "we": 571,
    "we</w>": 572,
    "wh": 573,
    "where</w>": 574,
    "which</w>": 575,
    "wi": 576,
    "with</w>": 577,
    "x": 578,
    "x</w>": 579,
    "xim": 580,
    "y": 581,
    "y,</w>": 582,
    "y.</w>": 583,
    "y</w>": 584,
    "z": 585,
    "zer": 586,
    "{": 587,
    "|": 588,
    "}": 589,
    "~": 590,
    "§": 591,
    "¬": 592,
    "°": 593,
    "±": 594,
    "²": 595,
    "·": 596,
    "Á": 597,
    "Â": 598,
    "É": 599,
    "×": 600,
    "Ø": 601,
    "Ü": 602,
    "ß": 603,
    "à": 604,
    "á": 605,
    "ä": 606,
    "å": 607,
    "æ": 608,
    "ç": 609,
    "è": 610,
    "é": 611,
    "ë": 612,
    "í": 613,
    "ï": 614,
    "ñ": 615,
    "ó": 616,
    "ô": 617,
    "ö": 618,
    "ø": 619,
    "ú": 620,
    "ü": 621,
    "ā": 622,
    "ă": 623,
    "ć": 624,
    "Č": 625,
    "č": 626,
    "ě": 627,
    "ħ": 628,
    "ī": 629,
    "ĭ": 630,
    "Ł": 631,
    "ł": 632,
    "ń": 633,
    "ň": 634,
    "ō": 635,
    "ő": 636,
    "ś": 637,
    "š": 638,
    "ƒ": 639,
    "̄": 640,
    "Γ": 641,
    "Δ": 642,
    "Θ": 643,
    "Λ": 644,
    "Π": 645,
    "Σ": 646,
    "Φ": 647,
    "Ω": 648,
    "α": 649,
    "β": 650,
    "γ": 651,
    "δ": 652,
    "ε": 653,
    "ζ": 654,
    "η": 655,
    "θ": 656,
    "κ": 657,
    "λ": 658,
    "μ": 659,
    "ν": 660,
    "ξ": 661,
    "π": 662,
    "ρ": 663,
    "σ": 664,
    "τ": 665,
    "φ": 666,
    "χ": 667,
    "ψ": 668,
    "ω": 669,
    "А": 670,
    "Б": 671,
    "И": 672,
    "М": 673,
    "С": 674,
    "а": 675,
    "в": 676,
    "г": 677,
    "д": 678,
    "е": 679,
    "з": 680,
    "и": 681,
    "й": 682,
    "к": 683,
    "л": 684,
    "м": 685,
    "н": 686,
    "о": 687,
    "п": 688,
    "р": 689,
    "с": 690,
    "т": 691,
    "у": 692,
    "х": 693,
    "ч": 694,
    "ы": 695,
    "я": 696,
    "‐": 697,
    "–": 698,
    "—": 699,
    "‖": 700,
    "’": 701,
    "“": 702,
    "”": 703,
    "…": 704,
    "′": 705,
    "⁄": 706,
    "⁎": 707,
    "⁠": 708,
    "⁺": 709,
    "ℏ": 710,
    "ℓ": 711,
    "℘": 712,
    "ℚ": 713,
    "ℜ": 714,
    "ℝ": 715,
    "ℤ": 716,
    "ℰ": 717,
    "ℵ": 718,
    "←": 719,
    "→": 720,
    "↔": 721,
    "↦": 722,
    "⇒": 723,
    "⇔": 724,
    "⇕": 725,
    "∀": 726,
    "∂": 727,
    "∃": 728,
    "∅": 729,
    "∆": 730,
    "∇": 731,
    "∈": 732,
    "∉": 733,
    "∋": 734,
    "∎": 735,
    "∏": 736,
    "∑": 737,
    "−": 738,
    "∗": 739,
    "∘": 740,
    "√": 741,
    "∞": 742,
    "∠": 743,
    "∥": 744,
    "∧": 745,
    "∩": 746,
    "∪": 747,
    "∫": 748,
    "≅": 749,
    "≈": 750,
    "≠": 751,
    "≡": 752,
    "≤": 753,
    "≥": 754,
    "≦": 755,
    "≧": 756,
    "≪": 757,
    "≫": 758,
    "≮": 759,
    "≺": 760,
    "⊂": 761,
    "⊃": 762,
    "⊆": 763,
    "⊇": 764,
    "⊕": 765,
    "⊗": 766,
    "⊢": 767,
    "⊥": 768,
    "⊨": 769,
    "⋂": 770,
    "⋃": 771,
    "⋅": 772,
    "⋆": 773,
    "⋯": 774,
    "⌊": 775,
    "⌋": 776,
    "▯": 777,
    "△": 778,
    "⟨": 779,
    "⟩": 780,
    "⨯": 781,
    "⩽": 782,
    "⩾": 783,
    "𝜆": 784,
    "𝜎": 785,
    "𝜏": 786
  },
  "itos": {
    "0": "!",
    "1": "\"",
    "2": "\"</w>",
    "3": "#",
    "4": "$",
    "5": "%",
    "6": "&",
    "7": "'",
    "8": "'s</w>",
    "9": "(",
    "10": "(19",
    "11": "(2",
    "12": ")",
    "13": "),</w>",
    "14": ").</w>",
    "15": ")</w>",
    "16": "*",
    "17": "+",
    "18": "+</w>",
    "19": ",",
    "20": ",</w>",
    "21": "-",
    "22": ".",
    "23": "..",
    "24": ".</w>",
    "25": "/",
    "26": "0",
    "27": "00",
    "28": "1",
    "29": "1,</w>",
    "30": "10",
    "31": "10.",
    "32": "19",
    "33": "1</w>",
    "34": "2",
    "35": "20",
    "36": "2</w>",
    "37": "3",
    "38": "4",
    "39": "5",
    "40": "6",
    "41": "7",
    "42": "8",
    "43": "9",
    "44": "97",
    "45": ":",
    "46": ":10.",
    "47": ":</w>",
    "48": ";",
    "49": ";</w>",
    "50": "<",
    "51": "</w>",
    "52": "=",
    "53": "=</w>",
    "54": "==</w>",
    "55": "===</w>",
    "56": ">",
    "57": "?",
    "58": "A",
    "59": "A</w>",
    "60": "B",
    "61": "BN</w>",
    "62": "C",
    "63": "D",
    "64": "D</w>",
    "65": "DOCUMENT</w>",
    "66": "E",
    "67": "EN",
    "68": "END</w>",
    "69": "ENT</w>",
    "70": "F",
    "71": "F</w>",
    "72": "For</w>",
    "73": "G",
    "74": "H",
    "75": "I",
    "76": "IS",
    "77": "ISBN</w>",
    "78": "If</w>",
    "79": "In",
    "80": "In</w>",
    "81": "It</w>",
    "82": "J",
    "83": "K",
    "84": "L",
    "85": "Let</w>",
    "86": "M",
    "87": "Ma",
    "88": "Mathematic",
    "89": "N",
    "90": "N</w>",
    "91": "O",
    "92": "OC",
    "93": "OF</w>",
    "94": "P",
    "95": "Pro",
    "96": "Q",
    "97": "R",
    "98": "R</w>",
    "99": "Re",
    "100": "S",
    "101": "St",
    "102": "T",
    "103": "T</w>",
    "104": "Th",
    "105": "The",
    "106": "The</w>",
    "107": "Theor",
    "108": "This</w>",
    "109": "U",
    "110": "UM",
    "111": "V",
    "112": "W",
    "113": "X",
    "114": "Y",
    "115": "Z",
    "116": "[",
    "117": "\\",
    "118": "]",
    "119": "^",
    "120": "_",
    "121": "a",
    "122": "a</w>",
    "123": "ab",
    "124": "abil",
    "125": "ability</w>",
    "126": "able</w>",
    "127": "ac",
    "128": "ach</w>",
    "129": "ad",
    "130": "ag",
    "131": "al",
    "132": "al</w>",
    "133": "algeb",
    "134": "aliz",
    "135": "all",
    "136": "all</w>",
    "137": "ally</w>",
    "138": "also</w>",
    "139": "am",
    "140": "ame</w>",
    "141": "ampl",
    "142": "an",
    "143": "an</w>",
    "144": "anc",
    "145": "and",
    "146": "and</w>",
    "147": "ang",
    "148": "ans",
    "149": "ant",
    "150": "ant</w>",
    "151": "any</w>",
    "152": "ap",
    "153": "ar",
    "154": "ar</w>",
    "155": "are</w>",
    "156": "ari",
    "157": "ary</w>",
    "158": "as",
    "159": "as</w>",
    "160": "ase</w>",
    "161": "at",
    "162": "at</w>",
    "163": "ate</w>",
    "164": "ated</w>",
    "165": "ati",
    "166": "atic",
    "167": "ation",
    "168": "ation</w>",
    "169": "ations</w>",
    "170": "atis",
    "171": "ative</w>",
    "172": "aus",
    "173": "ay",
    "174": "b",
    "175": "be",
    "176": "be</w>",
    "177": "ble</w>",
    "178": "bo",
    "179": "bu",
    "180": "but</w>",
    "181": "by</w>",
    "182": "c",
    "183": "can</w>",
    "184": "case</w>",
    "185": "ch",
    "186": "ch</w>",
    "187": "cl",
    "188": "co",
    "189": "com",
    "190": "comp",
    "191": "compl",
    "192": "con",
    "193": "condi",
    "194": "conject",
    "195": "continu",
    "196": "cor",
    "197": "cur",
    "198": "d",
    "199": "d</w>",
    "200": "de",
    "201": "defin",
    "202": "den",
    "203": "dep",
    "204": "depend",
    "205": "der",
    "206": "deriv",
    "207": "di",
    "208": "diff",
    "209": "differ",
    "210": "dimen",
    "211": "dimension",
    "212": "dis",
    "213": "dist",
    "214": "distribu",
    "215": "do",
    "216": "doi",
    "217": "doi:10.",
    "218": "ds</w>",
    "219": "duc",
    "220": "e",
    "221": "e,</w>",
    "222": "e.</w>",
    "223": "e</w>",
    "224": "each</w>",
    "225": "ec",
    "226": "ect",
    "227": "ed",
    "228": "ed</w>",
    "229": "eg",
    "230": "el",
    "231": "el</w>",
    "232": "ely</w>",
    "233": "em",
    "234": "ement</w>",
    "235": "en",
    "236": "en</w>",
    "237": "enc",
    "238": "ence</w>",
    "239": "ences</w>",
    "240": "end",
    "241": "ener",
    "242": "ent",
    "243": "ent</w>",
    "244": "enti",
    "245": "ents</w>",
    "246": "equ",
    "247": "equal",
    "248": "er",
    "249": "er</w>",
    "250": "ere</w>",
    "251": "ers</w>",
    "252": "es",
    "253": "es,</w>",
    "254": "es.</w>",
    "255": "es</w>",
    "256": "ess</w>",
    "257": "et",
    "258": "et</w>",
    "259": "etr",
    "260": "ev",
    "261": "ever",
    "262": "every</w>",
    "263": "ex",
    "264": "ex</w>",
    "265": "exampl",
    "266": "exist",
    "267": "exp",
    "268": "ext",
    "269": "f",
    "270": "f</w>",
    "271": "fac",
    "272": "fer",
    "273": "ferences</w>",
    "274": "ff",
    "275": "ffic",
    "276": "fi",
    "277": "fiel",
    "278": "fin",
    "279": "finit",
    "280": "finite</w>",
    "281": "fir",
    "282": "first</w>",
    "283": "fol",
    "284": "follow",
    "285": "for",
    "286": "for</w>",
    "287": "form",
    "288": "form</w>",
    "289": "formul",
    "290": "from</w>",
    "291": "func",
    "292": "function",
    "293": "function</w>",
    "294": "functions</w>",
    "295": "g",
    "296": "g</w>",
    "297": "ge",
    "298": "ge</w>",
    "299": "geb",
    "300": "gener",
    "301": "giv",
    "302": "given</w>",
    "303": "gr",
    "304": "gro",
    "305": "group",
    "306": "h",
    "307": "h</w>",
    "308": "ha",
    "309": "has</w>",
    "310": "have</w>",
    "311": "hol",
    "312": "i",
    "313": "i</w>",
    "314": "ial</w>",
    "315": "ic",
    "316": "ic</w>",
    "317": "ical</w>",
    "318": "ich</w>",
    "319": "id",
    "320": "identi",
    "321": "ies</w>",
    "322": "if</w>",
    "323": "ig",
    "324": "igh",
    "325": "il",
    "326": "im",
    "327": "in",
    "328": "in</w>",
    "329": "inc",
    "330": "ince</w>",
    "331": "inequal",
    "332": "inequality</w>",
    "333": "ing",
    "334": "ing</w>",
    "335": "int",
    "336": "int</w>",
    "337": "integ",
    "338": "integr",
    "339": "inter",
    "340": "ir",
    "341": "ir</w>",
    "342": "is",
    "343": "is</w>",
    "344": "ist",
    "345": "it",
    "346": "it</w>",
    "347": "its</w>",
    "348": "ity</w>",
    "349": "iv",
    "350": "iz",
    "351": "j",
    "352": "ject",
    "353": "k",
    "354": "k</w>",
    "355": "know",
    "356": "l",
    "357": "l</w>",
    "358": "le",
    "359": "le</w>",
    "360": "lem",
    "361": "les</w>",
    "362": "li",
    "363": "lin",
    "364": "low",
    "365": "ly</w>",
    "366": "m",
    "367": "m</w>",
    "368": "ma",
    "369": "ma</w>",
    "370": "man",
    "371": "mat",
    "372": "mathematic",
    "373": "me",
    "374": "mea",
    "375": "men",
    "376": "min",
    "377": "mo",
    "378": "mod",
    "379": "n",
    "380": "n</w>",
    "381": "ne",
    "382": "ni",
    "383": "no",
    "384": "non",
    "385": "non-",
    "386": "not</w>",
    "387": "now",
    "388": "numb",
    "389": "number</w>",
    "390": "o",
    "391": "o</w>",
    "392": "ob",
    "393": "oc",
    "394": "od",
    "395": "of",
    "396": "of</w>",
    "397": "og",
    "398": "ol",
    "399": "olog",
    "400": "om",
    "401": "om</w>",
    "402": "ometr",
    "403": "on",
    "404": "on</w>",
    "405": "one</w>",
    "406": "only</w>",
    "407": "op",
    "408": "or",
    "409": "or</w>",
    "410": "ord",
    "411": "ore</w>",
    "412": "os",
    "413": "ot",
    "414": "other</w>",
    "415": "ou",
    "416": "our",
    "417": "ous</w>",
    "418": "out</w>",
    "419": "ov",
    "420": "over</w>",
    "421": "ow",
    "422": "p",
    "423": "p</w>",
    "424": "par",
    "425": "per",
    "426": "ph",
    "427": "pl",
    "428": "plic",
    "429": "po",
    "430": "point",
    "431": "point</w>",
    "432": "pol",
    "433": "poly",
    "434": "pos",
    "435": "posi",
    "436": "pr",
    "437": "pre",
    "438": "pres",
    "439": "pri",
    "440": "pro",
    "441": "prob",
    "442": "produc",
    "443": "proof</w>",
    "444": "prov",
    "445": "proved</w>",
    "446": "q",
    "447": "qu",
    "448": "r",
    "449": "ra",
    "450": "re",
    "451": "rec",
    "452": "ree</w>",
    "453": "rel",
    "454": "resul",
    "455": "ri",
    "456": "ribu",
    "457": "ro",
    "458": "rom</w>",
    "459": "s",
    "460": "s,</w>",
    "461": "s.</w>",
    "462": "s</w>",
    "463": "same</w>",
    "464": "se",
    "465": "se</w>",
    "466": "sequ",
    "467": "ser",
    "468": "set</w>",
    "469": "sh",
    "470": "show",
    "471": "si",
    "472": "sid",
    "473": "sim",
    "474": "sion",
    "475": "sion</w>",
    "476": "so</w>",
    "477": "sol",
    "478": "som",
    "479": "some</w>",
    "480": "sp",
    "481": "spac",
    "482": "space</w>",
    "483": "spec",
    "484": "st",
    "485": "st</w>",
    "486": "stat",
    "487": "stem",
    "488": "str",
    "489": "struc",
    "490": "su",
    "491": "sub",
    "492": "such</w>",
    "493": "sul",
    "494": "sum",
    "495": "sur",
    "496": "sy",
    "497": "system",
    "498": "t",
    "499": "t</w>",
    "500": "ta",
    "501": "ted</w>",
    "502": "ter",
    "503": "ter</w>",
    "504": "th",
    "505": "th</w>",
    "506": "than</w>",
    "507": "that</w>",
    "508": "the",
    "509": "the</w>",
    "510": "them",
    "511": "thematic",
    "512": "then</w>",
    "513": "theor",
    "514": "theorem",
    "515": "theorem</w>",
    "516": "ther</w>",
    "517": "there</w>",
    "518": "this</w>",
    "519": "ti",
    "520": "tic",
    "521": "tic</w>",
    "522": "ties</w>",
    "523": "tim",
    "524": "tin",
    "525": "ting</w>",
    "526": "tinu",
    "527": "tion",
    "528": "tion</w>",
    "529": "tions</w>",
    "530": "tive</w>",
    "531": "to</w>",
    "532": "tr",
    "533": "trans",
    "534": "tri",
    "535": "ts</w>",
    "536": "tw",
    "537": "two</w>",
    "538": "ty</w>",
    "539": "u",
    "540": "uc",
    "541": "ud",
    "542": "ue</w>",
    "543": "ul",
    "544": "ular</w>",
    "545": "um",
    "546": "um</w>",
    "547": "umb",
    "548": "un",
    "549": "unc",
    "550": "und",
    "551": "uni",
    "552": "up",
    "553": "ur",
    "554": "ure",
    "555": "ure</w>",
    "556": "us",
    "557": "us</w>",
    "558": "used</w>",
    "559": "ut",
    "560": "v",
    "561": "val",
    "562": "valu",
    "563": "vari",
    "564": "ve</w>",
    "565": "vect",
    "566": "ver",
    "567": "vi",
    "568": "w",
    "569": "w</w>",
    "570": "was</w>",
    "571": "we",
    "572": "we</w>",
    "573": "wh",
    "574": "where</w>",
    "575": "which</w>",
    "576": "wi",
    "577": "with</w>",
    "578": "x",
    "579": "x</w>",
    "580": "xim",
    "581": "y",
    "582": "y,</w>",
    "583": "y.</w>",
    "584": "y</w>",
    "585": "z",
    "586": "zer",
    "587": "{",
    "588": "|",
    "589": "}",
    "590": "~",
    "591": "§",
    "592": "¬",
    "593": "°",
    "594": "±",
    "595": "²",
    "596": "·",
    "597": "Á",
    "598": "Â",
    "599": "É",
    "600": "×",
    "601": "Ø",
    "602": "Ü",
    "603": "ß",
    "604": "à",
    "605": "á",
    "606": "ä",
    "607": "å",
    "608": "æ",
    "609": "ç",
    "610": "è",
    "611": "é",
    "612": "ë",
    "613": "í",
    "614": "ï",
    "615": "ñ",
    "616": "ó",
    "617": "ô",
    "618": "ö",
    "619": "ø",
    "620": "ú",
    "621": "ü",
    "622": "ā",
    "623": "ă",
    "624": "ć",
    "625": "Č",
    "626": "č",
    "627": "ě",
    "628": "ħ",
    "629": "ī",
    "630": "ĭ",
    "631": "Ł",
    "632": "ł",
    "633": "ń",
    "634": "ň",
    "635": "ō",
    "636": "ő",
    "637": "ś",
    "638": "š",
    "639": "ƒ",
    "640": "̄",
    "641": "Γ",
    "642": "Δ",
    "643": "Θ",
    "644": "Λ",
    "645": "Π",
    "646": "Σ",
    "647": "Φ",
    "648": "Ω",
    "649": "α",
    "650": "β",
    "651": "γ",
    "652": "δ",
    "653": "ε",
    "654": "ζ",
    "655": "η",
    "656": "θ",
    "657": "κ",
    "658": "λ",
    "659": "μ",
    "660": "ν",
    "661": "ξ",
    "662": "π",
    "663": "ρ",
    "664": "σ",
    "665": "τ",
    "666": "φ",
    "667": "χ",
    "668": "ψ",
    "669": "ω",
    "670": "А",
    "671": "Б",
    "672": "И",
    "673": "М",
    "674": "С",
    "675": "а",
    "676": "в",
    "677": "г",
    "678": "д",
    "679": "е",
    "680": "з",
    "681": "и",
    "682": "й",
    "683": "к",
    "684": "л",
    "685": "м",
    "686": "н",
    "687": "о",
    "688": "п",
    "689": "р",
    "690": "с",
    "691": "т",
    "692": "у",
    "693": "х",
    "694": "ч",
    "695": "ы",
    "696": "я",
    "697": "‐",
    "698": "–",
    "699": "—",
    "700": "‖",
    "701": "’",
    "702": "“",
    "703": "”",
    "704": "…",
    "705": "′",
    "706": "⁄",
    "707": "⁎",
    "708": "⁠",
    "709": "⁺",
    "710": "ℏ",
    "711": "ℓ",
    "712": "℘",
    "713": "ℚ",
    "714": "ℜ",
    "715": "ℝ",
    "716": "ℤ",
    "717": "ℰ",
    "718": "ℵ",
    "719": "←",
    "720": "→",
    "721": "↔",
    "722": "↦",
    "723": "⇒",
    "724": "⇔",
    "725": "⇕",
    "726": "∀",
    "727": "∂",
    "728": "∃",
    "729": "∅",
    "730": "∆",
    "731": "∇",
    "732": "∈",
    "733": "∉",
    "734": "∋",
    "735": "∎",
    "736": "∏",
    "737": "∑",
    "738": "−",
    "739": "∗",
    "740": "∘",
    "741": "√",
    "742": "∞",
    "743": "∠",
    "744": "∥",
    "745": "∧",
    "746": "∩",
    "747": "∪",
    "748": "∫",
    "749": "≅",
    "750": "≈",
    "751": "≠",
    "752": "≡",
    "753": "≤",
    "754": "≥",
    "755": "≦",
    "756": "≧",
    "757": "≪",
    "758": "≫",
    "759": "≮",
    "760": "≺",
    "761": "⊂",
    "762": "⊃",
    "763": "⊆",
    "764": "⊇",
    "765": "⊕",
    "766": "⊗",
    "767": "⊢",
    "768": "⊥",
    "769": "⊨",
    "770": "⋂",
    "771": "⋃",
    "772": "⋅",
    "773": "⋆",
    "774": "⋯",
    "775": "⌊",
    "776": "⌋",
    "777": "▯",
    "778": "△",
    "779": "⟨",
    "780": "⟩",
    "781": "⨯",
    "782": "⩽",
    "783": "⩾",
    "784": "𝜆",
    "785": "𝜎",
    "786": "𝜏"
  }
}